TRT-8001-EntropyCalibration2
Input: 3f9849a2
convolution_output49: 3e44da6f
activation_2/Relu:0: 3dd3f48e
convolution_output46: 3dca4db5
convolution_output48: 3e57d854
block_1a_relu_1/Relu:0: 3e0394a3
convolution_output45: 3e0db60c
add_9/add:0: 3e52d82a
block_1a_relu/Relu:0: 3e836348
convolution_output40: 3e71f79b
convolution_output44: 3e33a0d0
block_1b_relu_1/Relu:0: 3e165a60
convolution_output39: 3e522f6c
add_10/add:0: 3e9f5193
block_1b_relu/Relu:0: 3e72f9b2
convolution_output34: 3dddc0d7
convolution_output38: 3e2171bb
block_2a_relu_1/Relu:0: 3e326267
convolution_output33: 3e30eae4
add_11/add:0: 3e410f24
block_2a_relu/Relu:0: 3e61deb1
convolution_output27: 3e0ce0f1
convolution_output30: 3e363dcd
block_2b_relu_1/Relu:0: 3dbb3db5
convolution_output26: 3e3919c8
add_12/add:0: 3e5214cd
block_2b_relu/Relu:0: 3e260b56
convolution_output32: 3dab669f
convolution_output37: 3e50e4cf
block_3a_relu_1/Relu:0: 3e2997b2
convolution_output31: 3e47a7cc
add_13/add:0: 3e412559
block_3a_relu/Relu:0: 3e566e0a
convolution_output24: 3e014026
convolution_output29: 3e1f6fbd
block_3b_relu_1/Relu:0: 3db36469
convolution_output23: 3dd5d4b7
add_14/add:0: 3e2cb705
block_3b_relu/Relu:0: 3e04bf57
convolution_output43: 3daa5fa7
convolution_output47: 3d84b645
block_4a_relu_1/Relu:0: 3e08647f
convolution_output42: 3d14d6cb
add_15/add:0: 3d94dc51
block_4a_relu/Relu:0: 3e5237a7
convolution_output36: 3e2f44eb
convolution_output41: 3d6fcb27
block_4b_relu_1/Relu:0: 3dfa72a0
convolution_output35: 3e167d72
add_16/add:0: 3eaffdda
block_4b_relu/Relu:0: 3f0150ad
block_4b_relu/Relu:0_pooling0: 3f0150ad
block_4b_relu/Relu:0_pooling01: 3f0150ad
block_4b_relu/Relu:0_pooling02: 3f0150ad
yolo_spp_concat/concat:0: 3f0150ad
convolution_output28: 3e2a374b
yolo_spp_conv_lrelu/LeakyRelu:0: 3dbd0146
convolution_output21: 3d7d2639
yolo_expand_conv1_lrelu/LeakyRelu:0: 3ca8c426
convolution_output18: 3e01ae2f
yolo_conv1_1_lrelu/LeakyRelu:0: 3da9d98f
convolution_output15: 3d903eb8
yolo_conv1_2_lrelu/LeakyRelu:0: 3d843de9
convolution_output12: 3e6afc60
yolo_conv1_3_lrelu/LeakyRelu:0: 3e05c365
convolution_output9: 3e75080a
yolo_conv1_4_lrelu/LeakyRelu:0: 3de1da89
convolution_output6: 3e82435d
yolo_conv1_5_lrelu/LeakyRelu:0: 3de874f2
convolution_output3: 3c7beb3a
convolution_output22: 3e1a176b
yolo_conv1_6_lrelu/LeakyRelu:0: 3ca7d63c
yolo_conv2_lrelu/LeakyRelu:0: 3d983fac
convolution_output: 3f03f6a8
upsample0/transpose_1:0: 3e04bf57
bg_permute/transpose:0: 3f03f6a8
concatenate_3/concat:0: 3e04bf57
bg_reshape/Reshape:0: 3f03f6a8
convolution_output19: 3e1161f3
yolo_conv3_1_lrelu/LeakyRelu:0: 3d80cd77
convolution_output16: 3de79f46
yolo_conv3_2_lrelu/LeakyRelu:0: 3d96ac8a
(Unnamed Layer* 94) [Constant]_output: 3bf2e655
bg_anchor/FirstDimTile/Tile:0: 3bf2e655
convolution_output13: 3e31ce8c
bg_anchor/Reshape:0: 3eafd068
yolo_conv3_3_lrelu/LeakyRelu:0: 3dc72f74
bg_bbox_processor/Reshape:0: 3f03f6a8
convolution_output10: 3e4dedb2
bg_bbox_processor/Reshape:0_cropping0: 3ed193b5
bg_bbox_processor/Reshape:0_cropping01: 3d315b1e
bg_bbox_processor/Reshape:0_cropping02: 3dbdd72b
yolo_conv3_4_lrelu/LeakyRelu:0: 3dbd0028
bg_bbox_processor/Sigmoid:0: 3c0cfc73
(Unnamed Layer* 162) [Shuffle]_output: 3d810a14
bg_bbox_processor/add:0: 3db62a04
convolution_output7: 3e7a1f1c
(Unnamed Layer* 166) [Shuffle]_output: 3c077dc8
bg_bbox_processor/mul:0: 3c140912
bg_bbox_processor/sub_1:0: 3d810a14
yolo_conv3_5_lrelu/LeakyRelu:0: 3dd8c034
(Unnamed Layer* 171) [Shuffle]_output: 394e7687
bg_bbox_processor/sub:0: 3ed193b5
bg_bbox_processor/Minimum_min0: 3d315b1e
convolution_output4: 3d4dc8c8
convolution_output25: 3e378a27
bg_bbox_processor/Exp:0: 3ed193b5
yolo_conv3_6_lrelu/LeakyRelu:0: 3ccd61f4
yolo_conv4_lrelu/LeakyRelu:0: 3e260b56
bg_bbox_processor/concat:0: 3ed193b5
convolution_output1: 3ea891a2
upsample1/transpose_1:0: 3e260b56
bg_bbox_processor/Reshape_1:0: 3eafd068
md_permute/transpose:0: 3ea891a2
concatenate_4/concat:0: 3e260b56
encoded_bg/concat:0: 4046c790
md_reshape/Reshape:0: 3ea891a2
convolution_output20: 3e3853d4
yolo_conv5_1_lrelu/LeakyRelu:0: 3dcb4ab5
convolution_output17: 3e1cabf1
yolo_conv5_2_lrelu/LeakyRelu:0: 3da03f79
(Unnamed Layer* 204) [Constant]_output: 3bf2ffde
md_anchor/FirstDimTile/Tile:0: 3bf2ffde
convolution_output14: 3e2c6e55
md_anchor/Reshape:0: 4034e737
yolo_conv5_3_lrelu/LeakyRelu:0: 3dcb956a
md_bbox_processor/Reshape:0: 3ea891a2
convolution_output11: 3e6c0c01
md_bbox_processor/Reshape:0_cropping0: 4034e737
md_bbox_processor/Reshape:0_cropping01: 3d7e3ff1
md_bbox_processor/Reshape:0_cropping02: 3db5a274
yolo_conv5_4_lrelu/LeakyRelu:0: 3db446a2
md_bbox_processor/Sigmoid:0: 3c0046fa
(Unnamed Layer* 272) [Shuffle]_output: 3d810a14
md_bbox_processor/add:0: 3df295fd
convolution_output8: 3e5e4d9a
(Unnamed Layer* 276) [Shuffle]_output: 3c0df17d
md_bbox_processor/mul:0: 3c0d1ae0
md_bbox_processor/sub_1:0: 3e010a14
yolo_conv5_5_lrelu/LeakyRelu:0: 3db3f919
(Unnamed Layer* 281) [Shuffle]_output: 39ce7687
md_bbox_processor/sub:0: 4034e737
md_bbox_processor/Minimum_min0: 3d815522
convolution_output5: 3d7c5239
md_bbox_processor/Exp:0: 4034e737
yolo_conv5_6_lrelu/LeakyRelu:0: 3d06481d
md_bbox_processor/concat:0: 4034e737
convolution_output2: 3ead0f67
md_bbox_processor/Reshape_1:0: 4034e737
sm_permute/transpose:0: 3ead0f67
encoded_md/concat:0: 4046c790
sm_reshape/Reshape:0: 3ead0f67
(Unnamed Layer* 306) [Constant]_output: 3bffed97
sm_anchor/FirstDimTile/Tile:0: 3bffed97
sm_anchor/Reshape:0: 4046c790
sm_bbox_processor/Reshape:0: 3ead0f67
sm_bbox_processor/Reshape:0_cropping0: 4046c790
sm_bbox_processor/Reshape:0_cropping01: 3e1d31e9
sm_bbox_processor/Reshape:0_cropping02: 3d9af5d8
sm_bbox_processor/Sigmoid:0: 3c03b31c
(Unnamed Layer* 370) [Shuffle]_output: 3d810a14
sm_bbox_processor/add:0: 3e390f67
(Unnamed Layer* 373) [Shuffle]_output: 3c1ad8e6
sm_bbox_processor/mul:0: 3c1e0a23
sm_bbox_processor/sub_1:0: 3e010a15
(Unnamed Layer* 377) [Shuffle]_output: 3a4e7687
sm_bbox_processor/sub:0: 4046c790
sm_bbox_processor/Minimum_min0: 3d81f3e9
sm_bbox_processor/Exp:0: 4046c790
sm_bbox_processor/concat:0: 4046c790
sm_bbox_processor/Reshape_1:0: 4046c790
encoded_sm/concat:0: 4046c790
encoded_detections/concat:0: 4046c790
box/Reshape:0: 4046c790
cls/Reshape:0: 4046c790
box/Reshape:0_cropping0: 3bffed97
box/Reshape:0_cropping01: 3bfe4891
box/Reshape:0_cropping02: 3c08e4bc
box/Reshape:0_cropping03: 3989a45b
box/Reshape:0_cropping04: 3a54c27f
box/Reshape:0_cropping05: 3d29b899
box/Reshape:0_cropping06: 3c0ea6a3
box/Reshape:0_cropping07: 39f2e5cc
box/Reshape:0_cropping08: 3bba1ecd
box/Reshape:0_cropping09: 407b9782
cls/Reshape:0_cropping0: 3f1f8cde
cls/Reshape:0_cropping01: 3f3d6bee
box/mul_1:0: 398eb716
box/mul_3:0: 3b9384bf
box/mul:0: 39fac4cb
box/mul_2:0: 3f18cfd5
cls/Sigmoid:0: 3c010a14
cls/Sigmoid_1:0: 3b143778
box/add_1:0: 3c251b8c
(Unnamed Layer* 610) [Shuffle]_output: 3b810a14
box/mul_4:0: 3b1384bf
box/add:0: 3c03f0ec
(Unnamed Layer* 614) [Shuffle]_output: 3b810a14
box/mul_6:0: 3e98cfd5
cls: 3afa5ad2
box/sub:0: 3e950a0f
box/sub_1:0: 3e950a0f
box/add_2:0: 3e950a0f
box/add_3:0: 3e950a0f
box: 3e950a0f
BatchedNMS: 3fd54285
BatchedNMS_1: 3c063a55
BatchedNMS_2: 3c037496
BatchedNMS_3: 3cc18f1e
